<unk>	0
<s>	0
</s>	0
▁	-2.52469
ን	-3.60412
▁የ	-4.006
ት	-4.10013
ም	-4.23226
▁በ	-4.32972
ል	-4.36329
ው	-4.41586
ር	-4.57564
ስ	-4.59076
ና	-4.72178
:	-4.78525
▁አ	-4.91749
▁ከ	-4.94612
ድ	-4.9844
▁መ	-4.99223
ለ	-5.08064
ላ	-5.1761
,	-5.18316
ረ	-5.30772
ታ	-5.31506
መ	-5.31932
ያ	-5.32499
ገ	-5.33472
ብ	-5.36208
ክ	-5.36315
ቀ	-5.36724
ይ	-5.37384
ግ	-5.38405
ራ	-5.38535
ማ	-5.39223
00:00	-5.46093
+	-5.4613
▁እና	-5.48724
በ	-5.52733
ፍ	-5.5435
ጠ	-5.54609
ደ	-5.55908
▁ለ	-5.55915
▁የሚ	-5.58313
,"	-5.58786
t	-5.59164
ነ	-5.60496
ሰ	-5.62805
ጥ	-5.63978
ሳ	-5.6511
ቅ	-5.67104
ጋ	-5.67202
▁ተ	-5.69951
▁ማ	-5.70484
ተ	-5.71357
ዳ	-5.72049
▁ላይ	-5.73011
ህ	-5.77707
ባ	-5.81334
▁ነው	-5.82455
ወ	-5.83707
ፈ	-5.86619
ቱ	-5.88276
▁የተ	-5.89161
ካ	-5.89883
የ	-5.90707
ች	-5.9418
ከ	-5.94828
ዝ	-5.97351
ጣ	-5.9819
ሉ	-5.98439
ሪ	-6.03113
▁ይ	-6.03951
o	-6.0423
ዋ	-6.05668
▁እ	-6.07098
ሮ	-6.1148
ዎች	-6.11649
a	-6.13487
ሽ	-6.16998
ነት	-6.18811
ዘ	-6.20007
ሩ	-6.20657
በት	-6.22065
ቶ	-6.22351
▁ያ	-6.25355
ቃ	-6.2566
ቆ	-6.26801
ሀ	-6.27247
e	-6.30276
ፋ	-6.30915
ኛ	-6.32238
▁ወደ	-6.33214
ikvahethmagazine	-6.35301
▁በመ	-6.37103
s	-6.43022
ሌ	-6.43356
p	-6.43398
▁ጋር	-6.45138
ሬ	-6.45746
▁እንዲ	-6.46887
ሻ	-6.48257
ዊ	-6.49715
ሙ	-6.49864
ውን	-6.50261
tikvahethsport	-6.50989
አ	-6.5199
ሚ	-6.52248
▁ውስጥ	-6.52685
ኝ	-6.53785
ኑ	-6.54405
▁👉	-6.55245
r	-6.56221
ሎ	-6.58857
1	-6.5903
7	-6.59178
ዛ	-6.59541
00	-6.60404
ሲ	-6.60771
ጎ	-6.61172
ሊ	-6.61204
▁ሲ	-6.61587
▁4	-6.61833
▁ብር	-6.61837
ኩ	-6.62226
▁ስ	-6.62592
i	-6.63011
ሸ	-6.63496
d	-6.63625
ቡ	-6.64498
ሞ	-6.65043
ፕ	-6.66832
2	-6.6722
ቁ	-6.68232
3	-6.69537
ጅ	-6.70001
_	-6.70228
ቤ	-6.70308
ቲ	-6.71772
▁kidusyoftahe	-6.7259
ጉ	-6.72868
E	-6.73069
9	-6.73269
▁2	-6.73297
▁እንደሚ	-6.74607
g	-6.74682
▁ለመ	-6.75022
ቢ	-6.75399
ሜ	-6.75616
ዲ	-6.7612
6	-6.76884
ኮ	-6.77043
ጀ	-6.77346
ጫ	-6.77563
▁ወ	-6.77821
ፊ	-6.77924
እ	-6.78743
ሱ	-6.80616
▁እንደ	-6.81177
ሁ	-6.81753
▁tikvahethsport	-6.81833
▁1	-6.81846
forfreemarket	-6.82239
f	-6.83354
▁በአ	-6.83926
ፅ	-6.83985
▁የአ	-6.84249
y	-6.84582
▁ሀ	-6.84608
ቶች	-6.84893
ሶ	-6.86042
ዱ	-6.86743
ቦ	-6.87048
ጨ	-6.87674
▁ኢትዮጵያ	-6.90542
c	-6.90716
4	-6.91738
er	-6.92039
ኒ	-6.92336
ጭ	-6.92541
▁ለማ	-6.93394
▁የመ	-6.93524
ለው	-6.94062
ኔ	-6.94405
▁ሲሆን	-6.95494
5	-6.9704
▁ቁ	-6.97896
ቻ	-6.98168
n	-6.98316
▁ከተማ	-6.98686
ቸው	-6.99271
▁በማ	-6.99439
▁ካ	-6.99519
ኖ	-7.00008
ሴ	-7.00462
▁ስራ	-7.00849
▁አስ	-7.01294
ሪያ	-7.02339
m	-7.03051
b	-7.03087
▁ባ	-7.03654
ደር	-7.03698
in	-7.03955
▁3	-7.04778
ዩ	-7.04993
k	-7.08291
▁ሊ	-7.08487
ችን	-7.09048
ዉ	-7.09306
▁ቤት	-7.10762
ዮ	-7.10966
▁እን	-7.12208
▁S	-7.12741
ዎ	-7.12996
▁8	-7.13037
20	-7.13091
ዋል	-7.13685
▁ለማዘዝ	-7.13776
▁ጊዜ	-7.14343
▁🇪🇹	-7.14514
ሆን	-7.15083
▁አመት	-7.15262
ቋ	-7.16244
▁አም	-7.1633
8	-7.16758
▁ያለው	-7.16858
በር	-7.17103
▁ቢሮ	-7.17982
ራት	-7.18134
▁ዋጋ	-7.18224
▁አል	-7.18313
ሆኑ	-7.18789
️	-7.19864
w	-7.20552
ዶ	-7.2088
▁በተ	-7.20973
ቴ	-7.21145
tikvahethiopia	-7.21297
08	-7.21604
ሰራ	-7.21786
ስተ	-7.21895
▁5	-7.22308
30	-7.22368
▁ጨዋታ	-7.22766
06	-7.23163
A	-7.2333
▁መሆኑን	-7.24196
11	-7.2444
ኪ	-7.24684
▁ደ	-7.25059
▁በላይ	-7.25377
ቂ	-7.25645
ጃ	-7.26277
ፎ	-7.26991
▁የሚያ	-7.27195
u	-7.27198
▁✅	-7.27838
▁ሰ	-7.28463
▁በሚ	-7.28512
▁ምን	-7.28842
07	-7.29189
ተኛ	-7.3011
S	-7.30398
ድር	-7.3047
▁ግ	-7.31254
▁እየ	-7.31932
▁ባለ	-7.32951
12	-7.33701
▁መረጃ	-7.33871
▁ኢ	-7.34101
ቪ	-7.34194
re	-7.34354
▁ይህ	-7.34389
ዴ	-7.34456
50	-7.34815
ሆነ	-7.3502
▁አበባ	-7.35799
l	-7.35984
በረ	-7.36085
ባቸው	-7.36093
ቱን	-7.36408
▁ጥ	-7.36454
▁የኢትዮጵያ	-7.36886
ቹ	-7.37097
ፉ	-7.37156
▁አይ	-7.37297
▁የማ	-7.37498
ገባ	-7.37679
ing	-7.37916
10	-7.39568
▁እስከ	-7.40373
ላቸው	-7.41402
▁እንዲሁም	-7.41799
▁httpstme	-7.42703
ስት	-7.43301
▁እነዚ	-7.43789
I	-7.43881
▁አለ	-7.44249
▁10	-7.44465
0	-7.44624
an	-7.45222
ጂ	-7.4528
05	-7.46078
ፃ	-7.46192
▁ተጨዋች	-7.46255
or	-7.46463
▁አንድ	-7.47086
▁አገልግሎት	-7.47165
on	-7.47811
v	-7.47949
▁ሰዎች	-7.48073
ፀ	-7.4811
ብረ	-7.48626
▁ይጠቀሙ	-7.48787
▁ታ	-7.49841
▁ያለ	-7.50067
25	-7.50546
ፖ	-7.5167
04	-7.5168
ዚ	-7.52152
▁ብ	-7.52516
▁09	-7.52835
ቷል	-7.52843
▁ቀን	-7.53093
le	-7.53226
ተው	-7.53252
ቸውን	-7.53684
▁ዋና	-7.54103
ሄ	-7.54194
O	-7.542
ኬ	-7.54311
▁እንዳ	-7.54829
▁ስለ	-7.54877
▁0911887579	-7.54903
▁12	-7.54917
▁15	-7.55245
▁ክልል	-7.553
ላይ	-7.55676
▁C	-7.55787
▁ብለዋል	-7.55791
▁ፓ	-7.56401
▁ቁጥሮች	-7.57226
⤵️	-7.57406
C	-7.57439
▁ኮ	-7.57705
▁ኤ	-7.58183
▁ሳ	-7.58672
ገር	-7.59198
ናል	-7.5925
▁ቴክኖሎጂ	-7.59356
▁አቶ	-7.59574
▁እየተ	-7.60048
▁📲	-7.60064
▁ቤተሰብ	-7.60424
ጡ	-7.60736
19	-7.60986
▁0911100302	-7.61358
▁ነበር	-7.61518
ንግ	-7.61551
▁እያ	-7.6161
▁💦	-7.61638
▁ከፍተኛ	-7.62136
ቀር	-7.624
▁ተገልጿል	-7.63054
M	-7.63122
▁ድረስ	-7.63219
21	-7.63258
▁ደረጃ	-7.63925
ጦ	-7.63941
09	-7.64016
ሰብ	-7.64047
18	-7.64153
ሆ	-7.64238
▁አሁን	-7.64384
ኤ	-7.64912
ብር	-7.65019
03	-7.65256
▁ሚኒስቴር	-7.65379
ረጋ	-7.65865
▁ቦታ	-7.66086
ስራ	-7.66323
▁ቢ	-7.66421
H	-7.66635
▁አን	-7.66643
T	-7.6699
R	-7.67251
ታቸው	-7.68494
▁ዩናይትድ	-7.68643
st	-7.68961
2022	-7.68995
ቢያ	-7.69108
▁17	-7.69219
▁ሚ	-7.69244
▁መንግስት	-7.69694
▁ዛሬ	-7.6986
ተዋል	-7.69897
ቤት	-7.6991
W	-7.69958
al	-7.70119
▁14	-7.70213
▁T	-7.70373
N	-7.70454
ሮች	-7.70734
13	-7.70806
▁ብቻ	-7.70825
▁አሰልጣኝ	-7.70934
▁ተናግረዋል	-7.71128
ወጣ	-7.71491
28	-7.71804
▁20	-7.71828
ዬ	-7.71928
▁11	-7.72307
▁የእ	-7.7262
ደረ	-7.72647
ዜ	-7.72689
▁ገልፀዋል	-7.73227
ጊ	-7.73243
▁tikvahethiopia	-7.73243
▁6	-7.73478
▁ግን	-7.73538
ቼ	-7.73545
ዎችን	-7.73727
ሰጥ	-7.73835
▁ነገር	-7.74002
▁18	-7.74205
▁ሁኔታ	-7.74257
▁16	-7.74654
ለን	-7.74872
▁ቁጥር	-7.75121
አፍሪካ	-7.75226
▁0	-7.75362
G	-7.75514
▁ስር	-7.75646
▁13	-7.76148
ሽን	-7.76273
22	-7.7631
26	-7.76404
▁ምክንያት	-7.77708
ችሁ	-7.77747
ሚያ	-7.77918
ሰው	-7.78246
02	-7.78652
▁ማስ	-7.78821
ፌ	-7.7901
ic	-7.79018
24	-7.79041
ወሰ	-7.79044
ዎቹ	-7.79207
ውድድር	-7.79289
x	-7.79837
ፓ	-7.8012
46	-7.80321
▁ህንፃ	-7.81667
ገኙ	-7.81786
ለት	-7.8199
48	-7.82325
ጌ	-7.82555
▁19	-7.82753
ጓ	-7.83099
ሊያ	-7.83272
▁ግብ	-7.83375
▁➡️	-7.83529
ቅር	-7.83628
h	-7.8373
29	-7.83891
▁ሰአት	-7.83967
01	-7.84049
27	-7.8421
▁በኋላ	-7.84634
16	-7.84875
ገኝ	-7.85134
ነው	-7.85272
▁በቴሌግራም	-7.8567
▁ሊግ	-7.85738
en	-7.85942
ጠቅ	-7.86072
23	-7.86133
▁ናቸው	-7.86198
▁ትምህርት	-7.86344
▁መንገድ	-7.86352
ኛው	-7.86618
ch	-7.86715
▁ማንችስተር	-7.86762
▁ሲሉ	-7.86872
ስታ	-7.8719
▁ይሁኑ	-7.87201
17	-7.87805
▁ኦ	-7.88026
14	-7.88104
40	-7.88359
D	-7.884
▁B	-7.8869
2021	-7.88966
49	-7.89005
▁ሞ	-7.89211
47	-7.8923
ሟ	-7.89336
at	-7.89573
ደረሰ	-7.8964
▁በዚህ	-7.90025
▁ወረዳ	-7.90118
ግባ	-7.90144
▁አዲስ	-7.90353
▁ወር	-7.90516
▁ክለብ	-7.90551
▁A	-7.91423
▁ሚሊዮን	-7.91435
ታል	-7.91474
▁ከተ	-7.91559
▁ሆቴል	-7.91562
▁የሆነ	-7.91717
ለች	-7.919
ቀጥ	-7.92654
▁በእ	-7.92711
FRE	-7.93447
ጆ	-7.93462
▁አስተዳደር	-7.93491
▁MARKET	-7.93534
ፈረ	-7.93556
▁ያስ	-7.93679
ባለ	-7.9376
45	-7.93826
▁ሲቲ	-7.94077
▁ከአ	-7.94101
▁ሺህ	-7.94294
el	-7.94633
▁7	-7.94732
▁መሰረት	-7.94798
B	-7.94823
es	-7.95024
▁Akdat	-7.95281
▁04	-7.9545
▁አደጋ	-7.95573
ed	-7.95952
▁ውጤት	-7.96123
ቲክቫህ	-7.96389
et	-7.96896
39	-7.96933
ra	-7.97108
ol	-7.9749
ዘመ	-7.9754
▁ብሄራዊ	-7.97926
ሰማ	-7.97992
▁ተመ	-7.98146
L	-7.98433
ኦ	-7.98584
ነገ	-7.98642
ኳ	-7.98684
▁ገልጿል	-7.98824
መው	-7.98976
38	-7.99037
ላል	-7.9914
ለሁ	-7.99214
▁ደግሞ	-7.99237
▁ጉዳት	-7.99421
te	-7.99909
▁ሀላፊ	-8.00058
36	-8.00127
▁አድራሻ	-8.00133
▁ፖሊስ	-8.00212
▁መስ	-8.00631
▁✔️	-8.00762
ሎች	-8.0077
ዙ	-8.01199
▁ከዚህ	-8.0123
▁በፊት	-8.0135
ታዊ	-8.01638
▁F	-8.01645
▁ቡድን	-8.01701
31	-8.0177
▁ፎቅ	-8.01941
th	-8.02231
ራቸው	-8.02357
ኢትዮጵያ	-8.02367
ተጨማሪ	-8.0243
▁በኢትዮጵያ	-8.02671
ሯ	-8.02877
U	-8.03066
ደረጉ	-8.03325
▁ነጥብ	-8.04122
ጠና	-8.04153
ዞ	-8.04483
▁ልዩ	-8.04584
▁ተቋማት	-8.04603
▁ለማስ	-8.04732
ሺ	-8.05697
👇👇👇	-8.05966
58	-8.0605
51	-8.06352
▁ባንክ	-8.06375
መራ	-8.06522
P	-8.0658
▁ከመ	-8.06614
ክስ	-8.06618
ሂ	-8.06704
ሳት	-8.07332
35	-8.07395
▁ጀምሮ	-8.07399
il	-8.07437
▁ዶር	-8.07491
መጣ	-8.07542
▁ጥያቄ	-8.07897
it	-8.08045
▁ወይም	-8.08077
▁ሲል	-8.083
ss	-8.08672
▁ሰው	-8.08712
▁https	-8.08905
▁ይፋ	-8.0915
ዲያ	-8.09223
ሁሉም	-8.09382
▁ተማሪዎች	-8.09455
ፔ	-8.09499
37	-8.09545
▁ጊቢ	-8.09624
ፒ	-8.09813
ክል	-8.09838
Ethiopia	-8.10428
2016	-8.10695
ገኘ	-8.10698
▁ችግር	-8.10894
ግብ	-8.11007
ኘ	-8.11041
▁ተብሏል	-8.11098
ገለፀ	-8.11428
V	-8.11666
56	-8.11703
▁ሁሉ	-8.11748
44	-8.12006
▁ሌሎች	-8.12045
▁ዞን	-8.12263
▁🏢	-8.12455
▁ሀይል	-8.12581
▁ያሉት	-8.12671
ገል	-8.12786
▁ሲያ	-8.13384
52	-8.13694
▁and	-8.13785
ባህ	-8.13892
33	-8.13962
am	-8.14148
53	-8.14218
59	-8.1451
ቁጥጥር	-8.14725
42	-8.14827
ወቅ	-8.14852
▁በነፃ	-8.14894
▁P	-8.14907
▁የስራ	-8.15009
ረዳ	-8.15098
ጤ	-8.15333
ትግራይ	-8.15379
2023	-8.1539
▁ሀገር	-8.1561
▁ለአ	-8.16177
43	-8.16316
▁ለሚ	-8.16372
▁tikvahmagbot	-8.16396
ሰር	-8.16435
is	-8.16535
▁ሚኒስትር	-8.1656
ከተማ	-8.16636
ሳይ	-8.17094
▁ፈተና	-8.17163
ፒያሳ	-8.17437
34	-8.17712
la	-8.18761
32	-8.19231
ፈር	-8.19235
ታቸውን	-8.19393
ማሸነፍ	-8.19604
ከር	-8.19798
▁እንደሆነ	-8.19851
በሩ	-8.19896
▁s	-8.19946
▁ወቅት	-8.20448
57	-8.20536
▁ተከ	-8.20675
▁ዋንጫ	-8.20679
▁አስተ	-8.20769
ቫ	-8.20904
▁ሳይ	-8.21216
▁ሙሉ	-8.21243
▁እንዲያ	-8.21518
የት	-8.22003
⃣	-8.22107
▁M	-8.22423
▁ሁለት	-8.22528
▁ጉዳይ	-8.22744
55	-8.22752
ገብ	-8.22865
ባል	-8.23053
F	-8.23152
ገደ	-8.23634
ከሰ	-8.23835
▁አካባቢ	-8.24039
ac	-8.24075
▁ብዙ	-8.24143
ፁ	-8.24199
ሪዎች	-8.24314
▁አይነት	-8.24332
▁ጣይቱ	-8.2444
ያሉበት	-8.24504
ችሉ	-8.24514
ዳር	-8.24593
ter	-8.24683
ጥር	-8.24851
poems	-8.25031
ቷ	-8.25253
▁አካላት	-8.25388
ne	-8.25558
us	-8.25764
ቶችን	-8.26063
ደረግ	-8.26182
▁አስታውቋል	-8.26344
ህይወት	-8.26405
as	-8.27252
ሰል	-8.27386
54	-8.27403
ሰሩ	-8.27435
አመቱ	-8.27992
▁አቀፍ	-8.28094
▁ተቀ	-8.28222
▁መካከል	-8.28348
▁አለም	-8.28587
▁ይሆናል	-8.28656
ግራ	-8.28721
▁ድጋፍ	-8.28905
ኖር	-8.29688
▁ያሉ	-8.29771
ስፖር	-8.2987
ቸ	-8.29875
ክር	-8.29967
ማንችስተር	-8.30006
ኢ	-8.30326
▁መሆኑ	-8.30445
▁to	-8.30536
▁በአዲስ	-8.30579
ሾ	-8.31021
▁ቤቶች	-8.31061
▁ልማት	-8.31302
▁L	-8.31626
2015	-8.31633
▁በሆነ	-8.31642
▁ምርጥ	-8.31923
▁D	-8.32013
▁ሳምንት	-8.32291
41	-8.32352
▁•	-8.32501
15	-8.32535
000	-8.32575
ation	-8.32736
▁አመታት	-8.32801
▁የሚያስ	-8.32962
ከተ	-8.32977
▁ከሚ	-8.33451
▁በመቶ	-8.33485
ቾች	-8.33505
com	-8.33662
▁አብ	-8.33816
ቺ	-8.33961
ሰባ	-8.34245
ዘጋጀ	-8.34681
▁የተለያዩ	-8.3477
ተር	-8.35096
ri	-8.35445
መረ	-8.35751
78	-8.35791
ቻችን	-8.35982
ባሉ	-8.36046
መገናኛ	-8.36327
ደን	-8.3638
▁መስመር	-8.36799
▁ተጠ	-8.36835
",2023-08-	-8.36991
▁እናደርሳለን	-8.36991
60	-8.37021
ደራ	-8.3707
ተደረገ	-8.37939
▁እንደሚያ	-8.37981
om	-8.38178
▁ተከትሎ	-8.3834
አማራ	-8.3841
ጁ	-8.38472
▁ዩኒቨርሲቲ	-8.38605
li	-8.38845
ve	-8.39542
👇	-8.39702
ቀው	-8.40233
ፆ	-8.40253
ህፃናት	-8.40877
▁ሊቨርፑል	-8.4088
ur	-8.40887
▁አባ	-8.41093
▁ችሏል	-8.4117
ሊጉ	-8.41243
ኞች	-8.41495
▁መግለጫ	-8.41574
ኡ	-8.41714
▁ጨዋታዎች	-8.41754
▁እንዳለ	-8.4177
▁ብሏል	-8.41779
ሰጡ	-8.41988
ገቡ	-8.42001
መረብ	-8.4201
▁እቃ	-8.42053
ሹ	-8.42206
▁በኩል	-8.42239
lo	-8.42383
▁የመጀመሪያ	-8.42418
▁አሳ	-8.42645
ብራ	-8.42766
ሷ	-8.42771
▁ተፈ	-8.42875
▁የማይ	-8.4291
▁the	-8.43122
▁ክፍል	-8.43705
ጄ	-8.43768
አሜሪካ	-8.44127
ገኘው	-8.44225
▁እድል	-8.44512
z	-8.44558
ነጋ	-8.45018
ሚየር	-8.45446
able	-8.45793
▁ሜዳ	-8.46154
▁አርሰናል	-8.4646
▁ተገ	-8.465
▁ዘርፍ	-8.4663
▁ክፍያ	-8.4675
ነሳ	-8.46913
ዶች	-8.46926
▁ገንዘብ	-8.46996
▁እኔ	-8.47552
▁በዚህም	-8.47829
ha	-8.47881
▁ጉዳዮች	-8.48082
▁ለተ	-8.48312
ቀረበ	-8.48443
▁በማድረግ	-8.48606
▁የአዲስ	-8.48798
▁በቀጣይ	-8.49058
▁የመንግስት	-8.49609
100	-8.4983
▁ጥሪ	-8.50157
መልክ	-8.50176
ir	-8.50716
▁ስራዎች	-8.50856
ዷ	-8.50885
▁ሶስት	-8.50918
አለም	-8.50948
▁ማድረግ	-8.50962
መጡ	-8.50963
▁ለማድረግ	-8.51656
▁በመሆኑ	-8.51786
▁ግብር	-8.51856
ሰጠው	-8.51976
▁ይህንን	-8.52131
▁የነበረው	-8.52155
▁የትምህርት	-8.52164
▁ሀገራት	-8.52202
79	-8.52232
ኤሌክትሪክ	-8.52278
▁ተነግሯል	-8.52278
,"❇️	-8.52356
500	-8.52379
▁እለት	-8.52415
ቧ	-8.52434
ce	-8.52629
ጠብ	-8.52764
ry	-8.52826
▁ዜጎች	-8.52903
K	-8.53059
▁🚩	-8.53117
ነቱ	-8.53132
▁ጨምሮ	-8.53297
💥	-8.5363
me	-8.53732
▁ሆኖ	-8.53867
ደርግ	-8.5394
ቸዋል	-8.54271
▁እንዳይ	-8.54439
ኙ	-8.54608
▁የሚገኙ	-8.54787
ፈው	-8.54956
ቦች	-8.55013
he	-8.55017
▁ያላቸው	-8.55017
▁የፊት	-8.55302
ኖች	-8.55365
°	-8.56008
ያዊ	-8.5672
ጪ	-8.56832
ቀድሞ	-8.56924
🔥	-8.57229
ግድ	-8.57234
▁ያለበት	-8.5728
ከፈ	-8.57464
▁የዲጂታል	-8.57474
ቀጠ	-8.57713
ኤል	-8.57852
▁በሚል	-8.57942
▁ተብሎ	-8.58228
▁እንደተ	-8.58308
de	-8.58468
▁ምንም	-8.58483
▁ድርጅት	-8.58548
▁አሉ	-8.58587
ገበያ	-8.58679
▁ማድሪድ	-8.59047
▁የአለም	-8.59143
ክለቡ	-8.59652
ዘር	-8.59902
▁ዶላር	-8.60054
▁ብሎ	-8.60068
ታችን	-8.60224
▁መርሀ	-8.60464
▁ሸዋ	-8.60464
ቻቸው	-8.60616
ቻል	-8.60687
▁ሱፐር	-8.60728
ሁለተኛ	-8.60731
▁ግቦች	-8.61014
🚛	-8.61238
mr	-8.61381
un	-8.61838
▁በተለያዩ	-8.61845
▁ኤምባሲ	-8.62179
▁ውሳኔ	-8.62267
▁ማሳ	-8.62535
▁የኢኖቬሽንና	-8.62538
ኖሩ	-8.62592
▁ግንባታ	-8.62622
76	-8.62695
መኪና	-8.62918
▁ዙር	-8.62933
▁Ma	-8.62981
▁በጣም	-8.63145
ut	-8.63335
trump	-8.63391
▁ስርአት	-8.63397
2014	-8.63535
▁No	-8.63612
ዥ	-8.6409
▁ጤና	-8.64557
▁ወራት	-8.6492
id	-8.6508
hi	-8.65943
ኢኮኖሚ	-8.66396
ነሱ	-8.66397
▁ስልጠና	-8.66521
አምስት	-8.66531
ma	-8.66556
▁ቃል	-8.66611
▁ቀናት	-8.66787
ወንጀል	-8.66849
▁ፊትለፊት	-8.67207
ቴክ	-8.67269
ጠበቅ	-8.67328
▁የኢ	-8.67482
MinTEthiopia	-8.67751
▁አሳውቋል	-8.68207
▁ሰራተኞች	-8.68212
▁ሰላም	-8.68253
▁በተለይ	-8.68403
ያደርጉ	-8.68488
▁የሚያስችል	-8.6867
▁የተባለ	-8.69065
ሰጠ	-8.692
ዲጂታል	-8.69311
ቻለ	-8.69479
በጀት	-8.6977
መሀል	-8.69967
pe	-8.70176
▁የነበሩ	-8.70529
ለዋል	-8.70791
ጀመረ	-8.70892
ላንድ	-8.7108
ፏ	-8.71835
▁የሱቅ	-8.71973
ጠቀም	-8.72009
ዚያ	-8.72065
ጊዜ	-8.72237
▁አለመ	-8.72256
ረቡ	-8.7234
▁ከእ	-8.72355
our	-8.72437
ገንዘብ	-8.72559
▁አይደለም	-8.72596
▁አባላት	-8.72706
j	-8.72882
ቾ	-8.72983
ሀገሪቱ	-8.73075
▁ይገኛል	-8.73171
ho	-8.73264
ቸዉ	-8.73491
▁ቤተ	-8.73508
ጉዳዩ	-8.73557
99	-8.73602
316	-8.7363
ኦሮሚያ	-8.73652
▁ጥሩ	-8.73653
▁የፀጥታ	-8.74135
▁ህዝብ	-8.74137
Store	-8.74719
▁በተጨማሪም	-8.74759
ሰቡ	-8.74767
▁ቀላል	-8.74818
▁እንቅስቃሴ	-8.74914
▁ያደረገ	-8.75016
▁ካናዳ	-8.75327
ፈፀመ	-8.75331
▁በአንድ	-8.75334
▁ተናግሯል	-8.75699
▁ከባድ	-8.75891
70	-8.76166
ማቸው	-8.76298
▁ተጠቃሚ	-8.76589
ቄ	-8.76688
▁ምክር	-8.76717
ሞች	-8.76995
▁የለም	-8.77043
,"💥	-8.77063
sh	-8.77152
▁አካል	-8.77447
ent	-8.77469
ኗ	-8.77889
ኢኖቬሽን	-8.78074
▁መተባበር	-8.7809
መልካም	-8.78316
ሏል	-8.78361
▁ንግድ	-8.78391
▁አቅም	-8.78529
ሳካ	-8.78554
ጩ	-8.78596
▁ችለዋል	-8.78619
mo	-8.78656
መልከ	-8.7895
▁ዘመን	-8.791
▁ነፃ	-8.79112
ikvahethMagazine	-8.79308
▁for	-8.79518
▁ኮሚሽን	-8.79615
▁ምላሽ	-8.79624
80	-8.797
ወጡ	-8.80441
se	-8.80816
75	-8.80839
▁መጠን	-8.80947
▁⚡️	-8.81063
▁ህግ	-8.81282
📍	-8.81475
▁እስካሁን	-8.82947
Y	-8.8337
ሀብ	-8.83437
ማርኬት	-8.83478
እድ	-8.83507
ቅዱስ	-8.84057
ነዳጅ	-8.84128
▁ውሀ	-8.84275
▁ሌላ	-8.84292
:15	-8.84325
▁ድል	-8.84463
መንግስ	-8.84476
ኢንተር	-8.84477
ብሄራዊ	-8.84522
️⃣📌	-8.8465
▁መስሪያ	-8.84704
▁አባል	-8.84789
ቻሉ	-8.84979
ዌ	-8.85087
68	-8.85126
▁ህክምና	-8.85304
ታወቀ	-8.85317
▁ምሽት	-8.85875
◦	-8.85956
ተኞች	-8.8597
ice	-8.86174
ተመሳሳይ	-8.86176
90	-8.86444
ጨዋታው	-8.86508
▁ፕር	-8.86677
▁በሙሉ	-8.86979
▁ገቢ	-8.87668
▁ውጪ	-8.87736
▁ጣቢያ	-8.87783
▁የንግድ	-8.87846
▁እንደነበር	-8.88053
wa	-8.88387
▁ጉባኤ	-8.88462
ኝነት	-8.88578
አውሮፓ	-8.88947
▁ትልቅ	-8.88988
ዘርፉ	-8.89155
▁ቀደም	-8.89186
88	-8.89241
ba	-8.89302
▁ምርመራ	-8.894
▁ይችላሉ	-8.8951
ኢትዮ	-8.89685
▁መልእክት	-8.89695
▁ፍሬ	-8.89753
ካሄድ	-8.89857
▁እኛ	-8.89944
▁ቢሊዮን	-8.89965
▁በማለት	-8.9021
▁የምት	-8.90228
ባርሴሎና	-8.90419
▁ካለ	-8.90792
ጀመር	-8.91031
▁እርምጃ	-8.91451
ጳ	-8.91566
66	-8.9173
▁ሴቶች	-8.92274
ፈልጉ	-8.92293
ሶች	-8.92298
▁አንዱ	-8.92438
pro	-8.925
▁እጅግ	-8.92504
▁በተመለከተ	-8.93195
ያዙ	-8.9328
▁ቀጣይ	-8.93551
▁ለማግኘት	-8.93783
▁የጤና	-8.93937
ዝውውር	-8.94022
ሼ	-8.94494
ቶተንሀም	-8.94494
▁ውይይት	-8.94732
▁ጥቅም	-8.94767
ቨር	-8.9486
ልማት	-8.9515
▁የውጭ	-8.95257
▁ስልክ	-8.95299
▁ክፍለ	-8.95456
▁እንኳን	-8.95695
ምርጫ	-8.95699
▁telegram	-8.9581
▁የነበረ	-8.95915
ight	-8.96078
▁ማለት	-8.96176
ive	-8.96543
▁ፍፃሜ	-8.96656
tion	-8.96808
ሀዋሳ	-8.96948
ቭ	-8.97265
▁ይታወሳል	-8.9751
▁ማእከል	-8.9751
▁እንጂ	-8.97545
▁ይመስላል	-8.98001
▁መፍትሄ	-8.98124
ፈልግ	-8.98128
▁ይሄ	-8.98321
▁ድርጅቶች	-8.98371
▁ዳይሬክተር	-8.98618
▁መልኩ	-8.98716
▁Re	-8.99268
▁ዙሪያ	-8.99383
▁የሚገኘው	-9.00046
▁ዴኤታ	-9.00115
ከላከል	-9.00241
▁ቀበሌ	-9.00748
ተሻለ	-9.00928
▁በቅርቡ	-9.01005
▁ችግሮች	-9.01253
▁ሆስፒታል	-9.01508
▁አስፈላጊ	-9.01508
👉	-9.01523
አካባቢው	-9.01615
▁አድርጓል	-9.01635
Free	-9.01766
▁ድምፅ	-9.0177
▁አካባቢዎች	-9.01884
ተካሄደ	-9.01893
98	-9.02041
▁ወጣቶች	-9.02229
ያቸው	-9.02663
ምእራብ	-9.03179
all	-9.03216
በታል	-9.03301
▁ስፍራ	-9.03341
▁ቢሆንም	-9.03574
▁በጋራ	-9.04269
▁መረጃዎች	-9.04584
አዲሱ	-9.04701
▁በመጠቀም	-9.04994
መሰረተ	-9.05014
▁ጥቃት	-9.05299
ፀጉር	-9.05678
J	-9.0607
▁ሜትር	-9.06085
▁ጥረት	-9.06137
▁you	-9.06204
ስድስት	-9.063
ኞ	-9.06403
ጧ	-9.06607
ul	-9.06645
ኞቹ	-9.06804
ethiopia	-9.0701
ጠናቀቅ	-9.07015
if	-9.07105
▁ይችላል	-9.07283
ኬንያ	-9.07571
▁አገልግሎቶች	-9.07686
▁ወጪ	-9.08052
▁ሚሊየን	-9.0823
አዲስ	-9.08402
መለሱ	-9.08446
▁ተስፋ	-9.08562
▁አረቢያ	-9.08928
▁የክልሉ	-9.08929
▁ቅዳሜ	-9.09052
q	-9.09187
▁ዝግጅት	-9.09188
ፈፀም	-9.09347
ጆች	-9.09444
▁የሚችል	-9.09575
▁በዛሬው	-9.09603
▁ትኩረት	-9.09741
▁ብለው	-9.0976
ተቋሙ	-9.0982
⚡	-9.09873
▁ይዞ	-9.09994
▁ፍላጎት	-9.10018
up	-9.10292
▁ፕሮግራም	-9.10296
▁ባለሙያዎች	-9.10778
▁የህዝብ	-9.10855
መቐለ	-9.10855
▁co	-9.10908
ሊዮ	-9.10912
▁ምርት	-9.11028
Update	-9.11839
2024	-9.12008
▁ባለስልጣን	-9.12015
▁ልጅ	-9.12114
▁ሙኒክ	-9.12122
▁መስራት	-9.12354
▁ግለሰብ	-9.12551
▁ሀብት	-9.12672
▁ግለሰቦች	-9.12833
ሏ	-9.12856
▁በሀላ	-9.13204
▁ባየር	-9.13434
ity	-9.13441
መከላከያ	-9.13549
🔹	-9.13549
ፈፀሙ	-9.1384
▁አየር	-9.13878
ዲዮ	-9.13991
ማንኛውም	-9.13991
▁በሰጡት	-9.14462
▁ግንኙነት	-9.14561
▁ምክትል	-9.14853
▁እየሰራ	-9.14897
▁እሁድ	-9.15014
▁ፍርድ	-9.15018
▁ተቋም	-9.15036
ትምህርት	-9.15381
▁ያልተ	-9.15494
ፐ	-9.15583
2019	-9.15812
🚚	-9.15877
▁ኮሚቴ	-9.15877
▁ቡና	-9.1601
▁ነዋሪዎች	-9.16149
▁ይገባል	-9.16197
um	-9.16299
ሊቨርፑል	-9.16755
ጀመሩ	-9.16774
ተለያዩ	-9.16984
▁ህገ	-9.17139
ect	-9.17599
▁መሆናቸውን	-9.17699
ሳተፉ	-9.17966
▁እንደማይ	-9.18282
▁ያህል	-9.18347
▁ምቹ	-9.1836
▁በተያያዘ	-9.1841
▁ትላንት	-9.18565
ሀላፊነት	-9.18592
▁መሬት	-9.18745
▁ውጭ	-9.19017
▁ጋርዲዮላ	-9.19017
ሻምፒየንስ	-9.19168
ቬ	-9.19168
▁ሚኒስትሩ	-9.19168
▁አሸናፊ	-9.19219
▁መተግበሪያ	-9.19473
ያገኙ	-9.19857
❌	-9.19931
መዝገብ	-9.19947
▁የሰላም	-9.2009
ate	-9.20228
▁ሀሳብ	-9.20258
uc	-9.20643
▁መሳሪያ	-9.20723
▁እንዴት	-9.21019
ገለፁ	-9.21143
መጋቢት	-9.21171
▁ተማሪ	-9.21537
መለስ	-9.21994
ሄዱ	-9.2218
ሱዳን	-9.22199
📣	-9.22571
ቀበል	-9.22607
▁ባለፉት	-9.22736
ጮ	-9.22886
✔	-9.23038
amharic	-9.23044
ተሽከርካሪ	-9.23476
▁አስፈፃሚ	-9.2352
ተከታታይ	-9.2352
▁እየተሰራ	-9.2391
📌	-9.24165
ተፈጠረ	-9.24166
▁ጠቁመዋል	-9.24317
ተጨዋቹ	-9.24317
▁ተደርጓል	-9.25121
▁ይደውሉ	-9.25121
▁መስጠት	-9.25149
▁Facebook	-9.25444
▁የህክምና	-9.25444
▁የማሸነፊያ	-9.25444
ዣ	-9.25769
",2024-01-2	-9.25931
▁ትስስር	-9.25933
▁ሂደት	-9.25933
▁ባለፈው	-9.26098
▁ሀይሎች	-9.26423
▁ዘግቧል	-9.26748
እረፍት	-9.26754
▁ሳይሆን	-9.27003
ትራፊክ	-9.27243
ናገሩ	-9.27333
▁አጠቃላይ	-9.27407
አስቸኳይ	-9.27738
▁ይገኛሉ	-9.27738
▁ዝግጁ	-9.27738
▁አድርጎ	-9.27912
ፍጥነት	-9.27935
▁እቅድ	-9.2813
ባንክ	-9.28209
ቨ	-9.28223
ደቂቃ	-9.28251
ፋይናንስ	-9.28403
ውድድሩ	-9.28404
ጫወት	-9.28462
ፖሊስ	-9.28545
▁የምግብ	-9.28994
▁ሆኗል	-9.2924
ሀይማኖ	-9.29409
▁ፕሮጀክት	-9.29409
▁አስተያየት	-9.29409
▁ጥናት	-9.29557
ሳረፍ	-9.29615
መሆናቸው	-9.2987
ኋ	-9.29908
ኸ	-9.29915
▁እግር	-9.30032
▁አመራሮች	-9.30086
እርዳታ	-9.30094
▁ዘንድ	-9.30117
▁ይሁን	-9.30687
Z	-9.30764
▁በታች	-9.30783
ጠቀሙ	-9.30864
ነዚህ	-9.31208
▁ያደረጉት	-9.31465
▁ቅሬታ	-9.31485
▁በሽታ	-9.31604
",2024-04-1	-9.31623
▁ልጆች	-9.31752
▁with	-9.31796
▁ግጭት	-9.31815
▁አደባባይ	-9.31968
▁እጥረት	-9.31969
▁በክልሉ	-9.31983
▁ፅቤት	-9.32533
ment	-9.32543
▁ሚላን	-9.32591
▁1️⃣	-9.32671
የካቲት	-9.32673
ሽያጭ	-9.32674
ኒውካስል	-9.33186
▁Telegram	-9.33186
▁ኩባንያ	-9.33186
💯	-9.33186
▁ከተሞች	-9.33437
▁በሌላ	-9.33767
",2024-04-2	-9.33888
▁ተጠቁሟል	-9.34065
Q	-9.34239
▁አስረድተዋል	-9.34241
አጠቃቀም	-9.34418
አሰልጣኝ	-9.34705
▁ታሪክ	-9.34786
▁የእንግሊዝ	-9.34951
▁ጉዞ	-9.34986
▁market	-9.35129
▁ሽልማት	-9.35333
▁ቆይታ	-9.35348
▁ተግባር	-9.35503
▁ፈቃድ	-9.35669
የዛሬ	-9.36002
▁ፍቅር	-9.36004
ሰላማዊ	-9.36026
▁በቀላሉ	-9.36387
ቴሌኮም	-9.36567
▁ኪሎ	-9.36658
▁የቴክኖሎጂ	-9.37294
ገነባ	-9.37336
▁በይፋ	-9.37426
",2024-03-1	-9.37476
አጭር	-9.37516
▁እየተደረገ	-9.37659
መረጡ	-9.37689
🔽	-9.37842
▁ኤሪክ	-9.38217
",2024-01-1	-9.38393
መገንባት	-9.38395
▁ሳይንስ	-9.38494
▁አዳዲስ	-9.38578
▁ክሎፕ	-9.38579
▁የወሩ	-9.39077
▁ተጠርጣሪ	-9.39134
▁ተግባራዊ	-9.39506
▁ተመራጭ	-9.39509
መመለስ	-9.39561
▁ፔፕ	-9.39729
▁ፋብሪካ	-9.39879
▁ጠንካራ	-9.39879
▁ምርቶች	-9.3994
ኢንተርኔት	-9.40069
▁አሰራር	-9.40322
port	-9.40362
",2024-05-1	-9.40442
▁ቴንሀግ	-9.40442
ስምምነቱ	-9.40632
▁ስለሆነ	-9.40659
ሰጣቸው	-9.40664
አገልግሎቱ	-9.41008
▁መድረክ	-9.41199
▁ቡድናቸው	-9.41387
▁አሰልጣኙ	-9.41387
ቆጣጠር	-9.41387
▁ለመስራት	-9.41411
▁አህመድ	-9.41769
ቀላቀል	-9.41961
▁ክለቦች	-9.4215
",2024-04-0	-9.42341
▁ካርድ	-9.42442
ሀይል	-9.4245
▁ዶክተር	-9.42533
አነስተኛ	-9.42921
▁Join	-9.43111
መስቀል	-9.43168
Tikvah	-9.43305
መድሀኒት	-9.43305
ኦንላይን	-9.43306
ሚያደርገው	-9.43503
ድሬዳዋ	-9.43693
▁መሀመድ	-9.43693
▁ህመም	-9.43714
▁ወንድ	-9.44208
▁መደበኛ	-9.44278
▁ህብረት	-9.44281
▁ለመስጠት	-9.44867
▁ነዋሪ	-9.44898
",2023-10-2	-9.45063
▁አድርገዋል	-9.45063
▁እድገት	-9.45065
ፖለቲካ	-9.4526
ሙከራ	-9.45292
ወዳጅ	-9.45295
▁እድሜ	-9.45501
▁መጨረሻ	-9.45656
ብርሀን	-9.45673
✅	-9.45914
ፒኤስጂ	-9.46252
አዳማ	-9.46357
🌼	-9.46652
መምህራን	-9.46853
ፌዴራል	-9.47053
▁Hair	-9.47053
▁ለዚህ	-9.47062
‍	-9.47254
▁በመተባበር	-9.47456
▁ቻናላችን	-9.47456
▁ዝርዝር	-9.47658
▁ተደርጎ	-9.47663
▁ፈጠራ	-9.47865
▁ነገሮች	-9.47878
ቤተክርስቲያን	-9.48266
▁ማህበር	-9.48278
▁አዋጅ	-9.48294
▁ህጋዊ	-9.48676
▁ጥበቃ	-9.48683
ቋቋም	-9.48685
▁Instagram	-9.48878
▁አርቴታ	-9.48879
ስጦታ	-9.48944
ዟ	-9.49494
▁ገልፀው	-9.49495
አርሰናል	-9.49885
",2024-02-0	-9.49907
",2024-02-2	-9.49907
▁የገለፁት	-9.50155
High	-9.50275
▁ቅናሽ	-9.50329
መፅሀፍ	-9.5053
▁ሪፖርት	-9.50738
▁ምዝገባ	-9.50741
▁ክትትል	-9.51367
▁መመሪያ	-9.51407
▁በአሁኑ	-9.51578
▁የመጨረሻ	-9.51786
▁ሰራዊት	-9.51788
የጨዋታ	-9.51902
ሙቀት	-9.51943
!!️	-9.51997
▁በመንግስት	-9.52042
ቿ	-9.52209
▁ቋንቋ	-9.5221
▁ክልሎች	-9.52222
▁አለብን	-9.52318
▁ችግሩ	-9.52635
bank	-9.52846
▁ደቡብ	-9.52854
ጠየቁ	-9.52866
▁አከባቢ	-9.52904
▁አዘጋጅ	-9.53059
▁ንግግር	-9.53275
ቀላቀሉ	-9.53487
▁be	-9.53515
",2023-10-0	-9.53701
🇪🇹	-9.53754
▁ክፍሎች	-9.53917
እንስሳት	-9.53953
▁ህይወታቸው	-9.54132
▁ሶስተኛ	-9.54566
እስር	-9.55069
",2024-03-0	-9.55216
ዌስትሀም	-9.55216
ረጅም	-9.55345
",2023-12-0	-9.55435
▁መንገዶች	-9.55435
X	-9.55652
▁ሚልዮን	-9.55654
▁አመራር	-9.5569
",2023-12-1	-9.55873
አስቶን	-9.55926
ራሳቸው	-9.56355
▁ጠባቂ	-9.56534
▁ማብራሪያ	-9.56535
አትሌቲ	-9.56538
Pro	-9.5655
ፖሊሲ	-9.56756
አገልግሎት	-9.56847
▁እንግሊዛዊ	-9.56977
▁የተሰኘ	-9.57203
cial	-9.57242
",2024-02-1	-9.57421
ብራይተን	-9.58093
▁አስተዳደሩ	-9.58317
▁በሀገር	-9.58339
▁በበኩላቸው	-9.58995
",2024-03-2	-9.59221
️⃣♦️	-9.59448
▁በመጀመሪያ	-9.59905
ህዝቡ	-9.5992
",2023-11-0	-9.60133
ጥንቃቄ	-9.60134
▁ለንደኑ	-9.60364
▁አማራጭ	-9.6039
▁ኤጀንሲ	-9.60593
▁የሀገር	-9.60622
",2024-05-0	-9.60823
▁ስብሰባ	-9.61058
ሲዳማ	-9.61437
ብፁእ	-9.61522
▁እስራት	-9.61809
ግንቦት	-9.61855
ማስታወቂያ	-9.61983
▁መታወቂያ	-9.61983
ኤርትራ	-9.61987
▁በአጠቃላይ	-9.62217
▁ወሳኝ	-9.62466
▁በከፍተኛ	-9.62686
▁ደብዳቤ	-9.63157
▁ፅህፈት	-9.6363
",2023-12-2	-9.63868
▁ደንበኞች	-9.63868
ሚደረገው	-9.63888
",2023-09-2	-9.64106
message	-9.64106
ጎንደር	-9.64158
▁TikTok	-9.64345
ነሀሴ	-9.64354
▁ስታዲየም	-9.64584
የራሱ	-9.64745
▁ክቡር	-9.64831
▁ማህበረሰብ	-9.65064
እስራኤል	-9.65068
ake	-9.65544
ፅሁፍ	-9.65554
ኦሮሞ	-9.66039
ፀሀይ	-9.66039
▁መኖሪያ	-9.66041
ፈለጉ	-9.66312
▁ሁለቱ	-9.66616
▁ተሽከርካሪዎች	-9.66831
▁ይጠበቃል	-9.67008
ተከላካይ	-9.67008
▁መድረሱ	-9.67009
▁ለበለጠ	-9.67009
▁የሰሜን	-9.67011
▁መስከረም	-9.67747
▁አንደኛ	-9.6779
▁አምባሳደር	-9.67995
ጨረታ	-9.68034
▁ታውቋል	-9.68243
▁መልእክ	-9.68334
▁መንግስታት	-9.68493
መዘገቡ	-9.68501
▁ተወካዮች	-9.69242
ዘጠኝ	-9.6926
ቱሪዝም	-9.69493
",2024-01-0	-9.69745
▁ተዘግቧል	-9.69745
▁ተሳታፊ	-9.69997
▁ጭማሪ	-9.69999
▁ዝናብ	-9.70011
ንቀሳቀስ	-9.7025
🏷	-9.70759
ከናወን	-9.70762
ተያዘ	-9.70974
▁አሁኑኑ	-9.71014
",2023-09-1	-9.7127
▁በደቡብ	-9.7127
ጢ	-9.71526
▁አቅርቦት	-9.71526
ፌስቡክ	-9.71783
",2023-11-2	-9.72041
",2023-11-1	-9.72299
▁ሰንጠረዥ	-9.72299
▁ደርሷል	-9.72299
▁ሂሳብ	-9.723
form	-9.72371
0911100302	-9.72444
▁አቅርበዋል	-9.72558
▁ዋስትና	-9.7256
ዘጋጁ	-9.72561
▁አቅራቢ	-9.72564
▁ይታወቃል	-9.72818
▁በሌሎች	-9.7283
ወላጆች	-9.7283
",2023-09-0	-9.73078
Size	-9.73339
▁የማህበራዊ	-9.73339
ICS	-9.7334
ሀገራዊ	-9.7334
▁ሰነድ	-9.73379
ፈልገው	-9.73609
▁እውቅና	-9.73865
▁ትራንስፖርት	-9.74127
▁ይቻላል	-9.74129
▁አትሌት	-9.74132
መግለፅ	-9.74134
▁አቅጣጫ	-9.74391
ተፈጥሮ	-9.74405
▁ሳላህ	-9.74415
▁አስተዋፅኦ	-9.7492
▁አሽከርካሪ	-9.7492
▁አቅርቧል	-9.7492
▁ሮናልዶ	-9.74921
▁ሚኬል	-9.74927
▁ተደራሽ	-9.7519
መለከቱ	-9.75454
አድራሻ	-9.75588
ስልጣን	-9.75681
አፈፃፀም	-9.75989
▁ተደምጠዋል	-9.75989
",2023-10-1	-9.76257
▁ክህሎት	-9.76257
ኤቨርተን	-9.76258
▁ጭምር	-9.76277
ፑ	-9.76527
▁ማድረጉ	-9.76527
ጠናቀቁ	-9.76531
▁ትብብር	-9.76533
▁ማህበራዊ	-9.76797
tain	-9.76845
ከታተሉ	-9.77068
▁ባወጣው	-9.77079
እግርኳስ	-9.77345
▁ስትራቴጂ	-9.77612
▁ኢንዱስትሪ	-9.78434
▁ፕሬዜዳን	-9.78434
▁እዚህ	-9.78442
▁አንፃር	-9.78717
",2023-07-2	-9.78986
ፕሮጀክቱ	-9.78986
▁አንዳንድ	-9.78987
▁ክርስቲያን	-9.79263
▁አስመልክቶ	-9.79264
ናይጄሪያ	-9.79541
▁በተደጋጋሚ	-9.79541
▁የሞባይል	-9.79541
▁ከንቲባ	-9.79542
ቴሌቪዥን	-9.79819
▁direct	-9.79819
▁አማካኝነት	-9.80099
Bot	-9.80103
▁ስልኮች	-9.8038
ard	-9.80425
ክረምት	-9.8067
▁Quality	-9.80941
ዩኒቨርሲቲ	-9.80956
▁የፌደራል	-9.81224
×	-9.82076
▁ቤተሰቦች	-9.82076
ሚመለከታቸው	-9.82362
ድርጊቱ	-9.8237
ባለድርሻ	-9.82375
▁ጠይቀዋል	-9.82648
ኮሚሽኑ	-9.82649
▁Send	-9.82937
ኢንቨስትመንት	-9.83224
📬	-9.83224
▁ባለሙያ	-9.83389
Eliasmeserett	-9.83513
Safaricom	-9.83513
▁አጋማሽ	-9.83514
imited	-9.83803
▁የሰብአዊ	-9.84094
▁የደቡብ	-9.84386
▁ተከሳሽ	-9.8439
▁ተፅእኖ	-9.84678
▁ታዳጊ	-9.8468
▁ዘርፎች	-9.85265
▁ይዘዙ	-9.85268
ነበራቸው	-9.85274
ዢ	-9.8556
Electric	-9.85856
wwwfacebookcom	-9.86153
▁ድርጅቱ	-9.86153
▁ያደርጋል	-9.86749
❤	-9.87048
▁ህብረተሰቡ	-9.87348
ታጣቂዎች	-9.87348
▁ተጠባቂ	-9.87349
ሳፋሪኮም	-9.8765
wanawsportwear	-9.88559
መለከት	-9.88563
▁ቅርንጫፍ	-9.88863
▁ዩኒቨርስቲ	-9.88863
▁ተያይዞ	-9.88864
▁ሀገራችን	-9.89169
▁አሳውቀዋል	-9.89169
▁በበኩሉ	-9.8917
በአሉ	-9.8922
▁ሲገለፅ	-9.89476
ካፒታል	-9.89479
♦	-9.90093
▁እያደረገ	-9.90095
▁ሰብአዊ	-9.90402
✨	-9.90713
▁Credit	-9.91024
▁አሳስቧል	-9.91024
,2023-01-	-9.91024
▁ባደረገው	-9.91024
ፌዴሬሽን	-9.9165
▁አማራጮች	-9.9165
በቴሌግራም	-9.91948
ሚቀጥለው	-9.9201
MPESA	-9.9228
▁ትእዛዝ	-9.9228
▁አረጋግጠዋል	-9.9228
▁ነጥቦች	-9.9228
ከታተል	-9.92281
▁በመስጠት	-9.92282
▁ተችሏል	-9.92283
▁ለመፍታት	-9.92597
▁ወረቀት	-9.92597
ኮሚኒኬሽን	-9.92914
▁ለመፍጠር	-9.92914
▁ተደምጧል	-9.93872
▁ቡድኖች	-9.93873
▁አድርገው	-9.94195
ቴሌብር	-9.94195
▁ከምሽቱ	-9.94195
▁አሳስበዋል	-9.94516
▁ፀጥታ	-9.94518
▁ለመጀመሪያ	-9.9484
▁ጋዜጣ	-9.94841
▁አክለውም	-9.94841
▁ያገኛሉ	-9.95165
▁መርሀግብር	-9.95167
▁ርእሰ	-9.95171
▁ይደረጋል	-9.95491
Mini	-9.95524
ሚኒስቴሩ	-9.95817
▁ወገኖች	-9.96477
ዎልቭስ	-9.96804
▁በማህበራዊ	-9.96804
አውሮፕላን	-9.97135
ኮንትሮባንድ	-9.97468
ጋምቤላ	-9.97468
▁ረቂቅ	-9.9747
መቀየር	-9.97513
▁አስታውቀዋል	-9.98135
▁ተሳትፎ	-9.98137
▁ቴሌግራም	-9.98808
ዲኤስቲቪ	-9.99145
ኚ	-10.0017
ኽ	-10.0017
!	-10.0154
ኀ	-10.0652
✍	-10.0762
📞	-10.0948
ጲ	-10.1175
📱	-10.1214
👍	-10.1448
🏾	-10.1974
ቮ	-10.2184
⭐	-10.2979
ጵ	-10.3212
📸	-10.3843
💰	-10.4357
ጇ	-10.4517
🍀	-10.4679
ኜ	-10.4899
ዪ	-10.5125
🔺	-10.5355
👟	-10.5355
🔻	-10.5473
–	-10.5591
🎉	-10.6081
ጐ	-10.6144
❣	-10.6144
🎄	-10.6144
♨	-10.6595
ፄ	-10.6795
🎁	-10.7208
÷	-10.7493
📲	-10.7498
®	-10.7711
🔸	-10.8087
➕	-10.8164
ፂ	-10.832
❓	-10.8478
🤩	-10.9309
︎	-10.9395
ዦ	-10.9751
●	-10.9842
🤔	-10.9934
🌻	-11.0026
🇸	-11.012
💦	-11.0181
ኹ	-11.0309
👔	-11.0309
❕	-11.0601
🏆	-11.121
⏱	-11.1422
🇷	-11.1529
🍽	-11.1638
ዠ	-11.1638
🌞	-11.1638
🥞	-11.1748
🏻	-11.1748
🚗	-11.1748
▸	-11.1971
🇪	-11.22
🍪	-11.2434
ዤ	-11.2434
🔪	-11.2434
ኟ	-11.2673
🥧	-11.3044
ጶ	-11.3298
✥	-11.3428
👈	-11.356
🔆	-11.3693
🥮	-11.3693
ሿ	-11.3693
ጬ	-11.3693
ኧ	-11.3965
🇬	-11.3965
🟨	-11.3965
🍅	-11.4104
ጿ	-11.4388
🧹	-11.4533
ዡ	-11.468
♥	-11.5134
🥇	-11.5134
👯	-11.5135
🥘	-11.5449
🇺	-11.5775
—	-11.5775
🎂	-11.5941
🔬	-11.5941
〰	-11.5941
🌟	-11.6111
👩	-11.6111
🩳	-11.6111
👗	-11.6283
💞	-11.6283
💧	-11.6459
📨	-11.6459
🏽	-11.6637
•	-11.6759
🚫	-11.6819
🦟	-11.6819
🇩	-11.7004
❶	-11.7193
❸	-11.7385
🥬	-11.7385
✝	-11.7385
💪	-11.7781
🇦	-11.7985
🔘	-11.7985
👚	-11.7985
🕷	-11.7985
🦗	-11.7985
《	-11.8194
🍸	-11.8194
🔴	-11.8194
》	-11.8407
🇧	-11.8624
🍹	-11.8624
🌐	-11.8846
😁	-11.8846
ጰ	-11.9306
⏲	-11.9306
⛽	-11.9306
✈	-11.9306
🇳	-11.9306
🔊	-11.9306
🍷	-11.9306
♬	-11.9544
🍗	-11.9544
🇹	-11.9788
🌍	-11.9788
💫	-11.9788
🤖	-11.9788
🤳	-11.9788
🏢	-12.0006
፪	-12.0294
ቐ	-13.0051
⚪	-13.4522
☀	-13.4523
═	-13.4524
🍖	-13.4525
🌬	-13.4526
▶	-13.4527
√	-13.4528
🛍	-13.4529
⚠	-13.453
❷	-13.4531
🖊	-13.4532
▫	-13.4533
🔗	-13.4534
🤝	-13.4535
📩	-13.4536
📢	-13.4537
💁	-13.4538
⭕	-13.4539
🥳	-13.454
🩸	-13.4541
👨	-13.4542
▹	-13.4543
✳	-13.4544
♂	-13.4545
∞	-13.4546
🍔	-13.4547
🦵	-13.4548
🌷	-13.4549
❗	-13.455
ጴ	-13.4551
☑	-13.4552
➤	-13.4553
🍳	-13.4554
☕	-13.4555
ቯ	-13.4556
♀	-13.4557
▪	-13.4558
🪞	-13.4559
🏅	-13.456
🌀	-13.4561
🔖	-13.4562
💬	-13.4563
👆	-13.4564
🔰	-13.4565
🎯	-13.4566
☎	-13.4567
❇	-13.4568
➡	-13.4569
⤵	-13.457
⚽	-13.4571
"	-13.4572
-	-13.4573
🚩	-13.4573
